{"version":"1.0","truncation":null,"padding":null,"added_tokens":[{"id":0,"content":"<|endoftext|>","single_word":false,"lstrip":false,"rstrip":false,"normalized":false,"special":true}],"normalizer":null,"pre_tokenizer":{"type":"ByteLevel","add_prefix_space":false,"trim_offsets":true,"use_regex":true},"post_processor":{"type":"ByteLevel","add_prefix_space":true,"trim_offsets":false,"use_regex":true},"decoder":{"type":"ByteLevel","add_prefix_space":true,"trim_offsets":true,"use_regex":true},"model":{"type":"BPE","dropout":null,"unk_token":null,"continuing_subword_prefix":null,"end_of_word_suffix":null,"fuse_unk":false,"byte_fallback":false,"ignore_merges":false,"vocab":{"<|endoftext|>":0,"!":1,"\"":2,"#":3,"$":4,"%":5,"&":6,"'":7,"(":8,")":9,"*":10,"+":11,",":12,"-":13,".":14,"/":15,"0":16,"1":17,"2":18,"3":19,"4":20,"5":21,"6":22,"7":23,"8":24,"9":25,":":26,";":27,"<":28,"=":29,">":30,"?":31,"@":32,"A":33,"B":34,"C":35,"D":36,"E":37,"F":38,"G":39,"H":40,"I":41,"J":42,"K":43,"L":44,"M":45,"N":46,"O":47,"P":48,"Q":49,"R":50,"S":51,"T":52,"U":53,"V":54,"W":55,"X":56,"Y":57,"Z":58,"[":59,"\\":60,"]":61,"^":62,"_":63,"`":64,"a":65,"b":66,"c":67,"d":68,"e":69,"f":70,"g":71,"h":72,"i":73,"j":74,"k":75,"l":76,"m":77,"n":78,"o":79,"p":80,"q":81,"r":82,"s":83,"t":84,"u":85,"v":86,"w":87,"x":88,"y":89,"z":90,"{":91,"|":92,"}":93,"~":94,"¡":95,"¢":96,"£":97,"¤":98,"¥":99,"¦":100,"§":101,"¨":102,"©":103,"ª":104,"«":105,"¬":106,"®":107,"¯":108,"°":109,"±":110,"²":111,"³":112,"´":113,"µ":114,"¶":115,"·":116,"¸":117,"¹":118,"º":119,"»":120,"¼":121,"½":122,"¾":123,"¿":124,"À":125,"Á":126,"Â":127,"Ã":128,"Ä":129,"Å":130,"Æ":131,"Ç":132,"È":133,"É":134,"Ê":135,"Ë":136,"Ì":137,"Í":138,"Î":139,"Ï":140,"Ð":141,"Ñ":142,"Ò":143,"Ó":144,"Ô":145,"Õ":146,"Ö":147,"×":148,"Ø":149,"Ù":150,"Ú":151,"Û":152,"Ü":153,"Ý":154,"Þ":155,"ß":156,"à":157,"á":158,"â":159,"ã":160,"ä":161,"å":162,"æ":163,"ç":164,"è":165,"é":166,"ê":167,"ë":168,"ì":169,"í":170,"î":171,"ï":172,"ð":173,"ñ":174,"ò":175,"ó":176,"ô":177,"õ":178,"ö":179,"÷":180,"ø":181,"ù":182,"ú":183,"û":184,"ü":185,"ý":186,"þ":187,"ÿ":188,"Ā":189,"ā":190,"Ă":191,"ă":192,"Ą":193,"ą":194,"Ć":195,"ć":196,"Ĉ":197,"ĉ":198,"Ċ":199,"ċ":200,"Č":201,"č":202,"Ď":203,"ď":204,"Đ":205,"đ":206,"Ē":207,"ē":208,"Ĕ":209,"ĕ":210,"Ė":211,"ė":212,"Ę":213,"ę":214,"Ě":215,"ě":216,"Ĝ":217,"ĝ":218,"Ğ":219,"ğ":220,"Ġ":221,"ġ":222,"Ģ":223,"ģ":224,"Ĥ":225,"ĥ":226,"Ħ":227,"ħ":228,"Ĩ":229,"ĩ":230,"Ī":231,"ī":232,"Ĭ":233,"ĭ":234,"Į":235,"į":236,"İ":237,"ı":238,"Ĳ":239,"ĳ":240,"Ĵ":241,"ĵ":242,"Ķ":243,"ķ":244,"ĸ":245,"Ĺ":246,"ĺ":247,"Ļ":248,"ļ":249,"Ľ":250,"ľ":251,"Ŀ":252,"ŀ":253,"Ł":254,"ł":255,"Ń":256,"Ġt":257,"he":258,"Ġa":259,"in":260,"Ġthe":261,"Ġs":262,"Ġw":263,"ou":264,"re":265,"er":266,"nd":267,"Ġo":268,"Ġb":269,"Ġc":270,"at":271,"Ġh":272,"is":273,"Ġm":274,"Ġd":275,"ed":276,"Ġf":277,"it":278,"ing":279,"Ġto":280,"an":281,"ll":282,"or":283,"on":284,"Ġp":285,"es":286,"Ġy":287,"Ġand":288,"en":289,"Ġl":290,"ar":291,"Ġyou":292,"Ġg":293,"as":294,"Ġth":295,"Ġin":296,"Ġ\"":297,"om":298,"Ġof":299,"Ġhe":300,"Ġn":301,"ĠI":302,"le":303,"ow":304,"id":305,"ay":306,"ot":307,"ic":308,"The":309,"et":310,"Ġon":311,"ve":312,"us":313,"Ġe":314,"ad":315,"al":316,"ac":317,"Ġre":318,"Ġbe":319,"ld":320,"im":321,"Ġis":322,"Ġit":323,".\"":324,"ut":325,"Ġst":326,"Ġdo":327,"Ġwas":328,"ir":329,"ver":330,"'s":331,"..":332,"ent":333,"ig":334,"Ġwh":335,"oo":336,"Ġthat":337,"ke":338,"ro":339,"ly":340,"out":341,"Ġhis":342,"am":343,"Ġfor":344,"her":345,"Ġan":346,"Ġha":347,"Ġas":348,"all":349,"Ġu":350,"ĠS":351,"st":352,"'t":353,"ion":354,"se":355,"ith":356,"Ġwe":357,"ĠA":358,"Ġsa":359,"ri":360,"ĠThe":361,"ht":362,"ĠH":363,"?\"":364,"Wh":365,"Ġwith":366,"ck":367,"Ġr":368,"ill":369,"if":370,"Ġyour":371,"Ġk":372,"ter":373,"ur":374,"Ġman":375,"Ġse":376,"Ġat":377,"ch":378,"Ġsaid":379,"hen":380,"Ġme":381,"--":382,"ĠC":383,"Ġj":384,"Ġne":385,"ct":386,"ĠT":387,"Ġsay":388,"ell":389,"Ġsh":390,"ĠB":391,"ome":392,"Ġare":393,"Ġup":394,"ight":395,"ce":396,"ant":397,"op":398,"ked":399,"Ġhave":400,"ĠM":401,"ge":402,"un":403,"Ġout":404,"Ġmy":405,"ust":406,"Ġgo":407,"ould":408,"ain":409,"il":410,"Ġhim":411,"ĠW":412,"Ġnot":413,"!\"":414,"Ġso":415,"Ġone":416,"and":417,"ks":418,"You":419,"ĠN":420,"Ġthey":421,"Ġcan":422,"pl":423,"ore":424,"art":425,"one":426,"ers":427,"Ġch":428,"um":429,"Ġde":430,"ack":431,"ĠD":432,",\"":433,"est":434,"Ġget":435,"pp":436,"Ġfr":437,"ake":438,"What":439,"Ġbut":440,"Ġher":441,"Ġthis":442,"Ġall":443,"king":444,"ab":445,"Ġkn":446,"ame":447,"Ġsays":448,"ĠP":449,"Ġwhen":450,"itt":451,"ĠHe":452,"red":453,"ol":454,"Ġwor":455,"ie":456,"ry":457,"ind":458,"our":459,"ard":460,"Ġshe":461,"own":462,"Ġle":463,"qu":464,"Ġli":465,"ĠG":466,"Ġwho":467,"rou":468,"th":469,"very":470,"Ġcom":471,"ĠJ":472,"ate":473,"ul":474,"Ġhad":475,"uck":476,"end":477,"ally":478,"ice":479,"ess":480,"ist":481,"ss":482,"Ġwhat":483,"ĠF":484,"Ġfrom":485,"Ġbo":486,"Ġthere":487,"ood":488,"to":489,"Ġdid":490,"Ġab":491,"ĠO":492,"use":493,"ĠL":494,"ast":495,"Ġex":496,"Ġsu":497,"ick":498,"Ġoff":499,"ear":500,"ra":501,"Ġday":502,"Ġsp":503,"Ġpl":504,"Ġwere":505,"Ġasked":506,"ime":507,"Ġv":508,"**":509,"Ġby":510,"...":511,"el":512,"Ġcl":513,"Ġ1":514,"----":515,"Ġ-":516,"Ġdown":517,"Ġjust":518,"Ġno":519,"ive":520,"Ġor":521,"Ġloo":522,"uy":523,"other":524,"ag":525,"ong":526,"ide":527,"Ġknow":528,"Ġdon":529,"Ġthem":530,"nt":531,"Ġro":532,"ep":533,"Ġback":534,"ation":535,"ittle":536,"ak":537,"Ġcon":538,"Ġco":539,"Ġinto":540,"Ġte":541,"Ġrepl":542,"Ġal":543,"ĠR":544,"ine":545,"'m":546,"00":547,"ud":548,"ies":549,"Ġwill":550,"ĠE":551,"Ġabout":552,"Ġif":553,"Ġpro":554,"ap":555,"ied":556,"ock":557,"Ġover":558,"ĠYou":559,"wo":560,"hing":561,"fter":562,"ris":563,"Ġwould":564,"ass":565,"Ġthen":566,"__":567,"em":568,"ink":569,"Ġsome":570,"Ġag":571,"Ġcall":572,"Ġlike":573,"ne":574,"way":575,"Ġtime":576,"Ġany":577,"Th":578,"ree":579,"ond":580,"Ġwal":581,"gh":582,"irst":583,"ther":584,"'re":585,"Ġlo":586,"ife":587,"ause":588,"ile":589,"Ġwant":590,"Ġhas":591,"Ġpe":592,"are":593,"Ġgot":594,"ven":595,"Ġguy":596,"ach":597,"ff":598,"Ġfe":599,"Ġqu":600,"ite":601,"Ġdoes":602,"He":603,"os":604,"od":605,"Why":606,"ĠCh":607,"Ġtheir":608,"Ġfirst":609,"ving":610,"Ġlittle":611,"ater":612,"Ġtr":613,"Ġother":614,"ber":615,"urn":616,"ous":617,"ort":618,"Ġsc":619,"ght":620,"Ġbl":621,"ctor":622,"....":623,"ble":624,"cause":625,"ound":626,"Ġ'":627,"Ġtwo":628,"ase":629,"ople":630,"lf":631,"'ll":632,"age":633,"Ġtoo":634,"here":635,"ull":636,"Ġsm":637,"Ġcar":638,"Ġold":639,"Ġnew":640,"Ġsee":641,"Ġcould":642,"Ġus":643,"Ġwent":644,"round":645,"ire":646,"ĠNor":647,"Ġhand":648,"Ġhow":649,"Ġdr":650,"xt":651,"ip":652,"Ġevery":653,"ng":654,"ure":655,"Ġboy":656,"Ġpeople":657,"mer":658,"we":659,"Ġbr":660,"ĠTh":661,"Ġreplied":662,"!!":663,"man":664,"aw":665,"riend":666,"Ġpre":667,"ny":668,"Ġen":669,"pt":670,"ich":671,"Ġtake":672,"Ġpr":673,"ish":674,"Ġfl":675,"ĠNorris":676,"Ġ2":677,"Ġtell":678,"Ġagain":679,"Ġ(":680,"ild":681,"ment":682,"ace":683,"hed":684,"ah":685,"Ġgr":686,"ouse":687,"Ġonly":688,"acher":689,"Ġcomp":690,"Ġdog":691,"Ġpo":692,"Ġyear":693,"ĠIt":694,"ect":695,"Ġmo":696,"ave":697,"ather":698,"per":699,"ang":700,"Ġar":701,"Ġput":702,"ool":703,"Ġjo":704,"Ġgoing":705,"Ġwom":706,"orn":707,"Ġhome":708,"Ġdri":709,"'ve":710,"ity":711,"Ġafter":712,"Ġmake":713,"fore":714,"Ġmore":715,"Ġbeen":716,"ĠWhat":717,"au":718,"ian":719,"Ġgood":720,"Ġnext":721,"Ġ$":722,"ren":723,"Ġasks":724,"int":725,"ves":726,"Well":727,"Ġright":728,"Ġfriend":729,"Ġthan":730,"Ġwr":731,"act":732,"oh":733,"Ġam":734,"Ġstart":735,"ose":736,"Ġac":737,"Ġnow":738,"iz":739,"Ġdoctor":740,"ign":741,"Ġvery":742,"ade":743,"Ġthink":744,"It":745,"Ġaround":746,"Ġbar":747,"--------":748,"ft":749,"Ġcou":750,"ĠSt":751,"Ġun":752,"wn":753,"Ġbet":754,"If":755,"ath":756,"Ġcame":757,"ee":758,"oy":759,"Ġans":760,"ved":761,"Ġwife":762,"ĠU":763,"ated":764,"ting":765,"Ġche":766,"No":767,"up":768,"ph":769,"Ġway":770,"able":771,"ue":772,"ĠY":773,"Ġsec":774,"Ġad":775,"Ġlet":776,"ĠK":777,"irl":778,"When":779,"Ġplay":780,"Ġwoman":781,"iss":782,"How":783,"ail":784,"nder":785,"Ġtold":786,"Ġwork":787,"ub":788,"ĠWhen":789,"****":790,"Ġhead":791,"ohn":792,"Ġke":793,"Ġdoor":794,"self":795,"omet":796,"Ġbecause":797,"Ġbefore":798,"Ġdec":799,"hes":800,"akes":801,"Ġmin":802,"pen":803,"Ġdis":804,"Ġlong":805,"Ġthing":806,"Ġcat":807,"Ġph":808,"ress":809,"Ġturn":810,"____":811,"Ġhere":812,"Ġroom":813,"old":814,"Ġteacher":815,"Ġmother":816,"Ġcont":817,"Ġ3":818,"ook":819,"ady":820,"ump":821,"thing":822,"air":823,"Ġbre":824,"ary":825,"Ġsl":826,"Ġim":827,"ought":828,"ĠSo":829,"Ġgoes":830,"Ġdidn":831,"Ġwhy":832,"ait":833,"te":834,"Ġfo":835,"oney":836,"ird":837,"Ġwhich":838,"ew":839,"ĠShe":840,"Ġunder":841,"Ġcome":842,"ord":843,"Ġneed":844,"Ġname":845,"Ġhapp":846,"Ġfind":847,"ence":848,"Ġyoung":849,"og":850,"ans":851,"Ġlight":852,"row":853,"Ġwhile":854,"ions":855,"Ġnever":856,"Ġgirl":857,"ĠThey":858,"ĠChuck":859,"ER":860,"Ġminut":861,"Ġnight":862,"Ġrun":863,"Ġmany":864,"Ġgre":865,"Ġshould":866,"ough":867,"Ġhouse":868,"Ġchild":869,"Ch":870,"igh":871,"Ġatt":872,"Who":873,"Ġmu":874,"Ġper":875,"ried":876,"ĠJohn":877,"les":878,"Ġwhere":879,"Ġfin":880,"Ġstop":881,"gg":882,"Ġfather":883,"ĠIf":884,"Ġeat":885,"Ġreally":886,"Ġrep":887,"Ġlast":888,"Ġlaw":889,"ance":890,"Ġgive":891,"Ġapp":892,"ars":893,"rough":894,"Ġson":895,"Ġbot":896,"omething":897,"ĠV":898,"ont":899,"Ġanother":900,"Ġsecond":901,"day":902,"Ġour":903,"erson":904,"Ġsame":905,"Ġres":906,"wer":907,"ents":908,"Ġwee":909,"Ġkid":910,"That":911,"So":912,"Ġtal":913,"ways":914,"atch":915,"ever":916,"ank":917,"get":918,"ty":919,"Ġeven":920,"Ġrem":921,"And":922,"Ġtry":923,"ange":924,"Ġopen":925,"Ġbig":926,"ory":927,"Ġfar":928,"Ġcalled":929,"Do":930,"In":931,"Ġstill":932,"fe":933,"lease":934,"chool":935,"aking":936,"Ġthree":937,"Ġthrough":938,"Ġele":939,"Ġword":940,"ci":941,"Ġspe":942,"Ġlook":943,"side":944,"dy":945,"my":946,"'d":947,"Ġown":948,"Ġlater":949,"Ġmar":950,"ross":951,"Ġyears":952,"ning":953,"Ġreplies":954,"Ġleft":955,"One":956,"This":957,"ered":958,"Ġmoney":959,"Ġsomething":960,"Ġmade":961,"ob":962,"Ġaway":963,"Ġwait":964,"Ġpar":965,"Ġscre":966,"hh":967,"Ġquest":968,"IN":969,"Ġpol":970,"Ġstud":971,"ple":972,"Ġmuch":973,"ĠHow":974,"Ġmom":975,"Ġstand":976,"cl":977,"nock":978,"Ġperson":979,"Ġhel":980,"Ġthought":981,"Ġbel":982,"Ġask":983,"orm":984,"Ġpart":985,"Ġtook":986,"av":987,"Ġfound":988,"Ġlife":989,"Ġsw":990,"There":991,"Ġey":992,"Ġeach":993,"Oh":994,"Ġmon":995,"Ġsaw":996,"ily":997,"Ġbus":998,"indow":999,"An":1000,"Ġ5":1001,"Ġend":1002,"Ġread":1003,"Ġ4":1004,"ise":1005,"Ġpass":1006,"\".":1007,"Ġschool":1008,"ĠWe":1009,"ens":1010,"Ġdecid":1011,"Ġminutes":1012,"My":1013,"ĠIn":1014,"Ġkeep":1015,"Ġalways":1016,"Be":1017,"Ġuse":1018,"ru":1019,"Ġwater":1020,"Ġshow":1021,"Ġlawy":1022,"Ġpull":1023},"merges":[["Ġ","t"],["h","e"],["Ġ","a"],["i","n"],["Ġt","he"],["Ġ","s"],["Ġ","w"],["o","u"],["r","e"],["e","r"],["n","d"],["Ġ","o"],["Ġ","b"],["Ġ","c"],["a","t"],["Ġ","h"],["i","s"],["Ġ","m"],["Ġ","d"],["e","d"],["Ġ","f"],["i","t"],["in","g"],["Ġt","o"],["a","n"],["l","l"],["o","r"],["o","n"],["Ġ","p"],["e","s"],["Ġ","y"],["Ġa","nd"],["e","n"],["Ġ","l"],["a","r"],["Ġy","ou"],["Ġ","g"],["a","s"],["Ġt","h"],["Ġ","in"],["Ġ","\""],["o","m"],["Ġo","f"],["Ġ","he"],["Ġ","n"],["Ġ","I"],["l","e"],["o","w"],["i","d"],["a","y"],["o","t"],["i","c"],["T","he"],["e","t"],["Ġo","n"],["v","e"],["u","s"],["Ġ","e"],["a","d"],["a","l"],["a","c"],["Ġ","re"],["Ġb","e"],["l","d"],["i","m"],["Ġ","is"],["Ġ","it"],[".","\""],["u","t"],["Ġs","t"],["Ġd","o"],["Ġw","as"],["i","r"],["v","er"],["'","s"],[".","."],["en","t"],["i","g"],["Ġw","h"],["o","o"],["Ġth","at"],["k","e"],["r","o"],["l","y"],["ou","t"],["Ġh","is"],["a","m"],["Ġf","or"],["he","r"],["Ġa","n"],["Ġh","a"],["Ġa","s"],["a","ll"],["Ġ","u"],["Ġ","S"],["s","t"],["'","t"],["i","on"],["s","e"],["it","h"],["Ġw","e"],["Ġ","A"],["Ġs","a"],["r","i"],["Ġ","The"],["h","t"],["Ġ","H"],["?","\""],["W","h"],["Ġw","ith"],["c","k"],["Ġ","r"],["i","ll"],["i","f"],["Ġyou","r"],["Ġ","k"],["t","er"],["u","r"],["Ġm","an"],["Ġs","e"],["Ġa","t"],["c","h"],["Ġsa","id"],["he","n"],["Ġm","e"],["-","-"],["Ġ","C"],["Ġ","j"],["Ġn","e"],["c","t"],["Ġ","T"],["Ġs","ay"],["e","ll"],["Ġs","h"],["Ġ","B"],["om","e"],["Ġa","re"],["Ġu","p"],["ig","ht"],["c","e"],["an","t"],["o","p"],["k","ed"],["Ġha","ve"],["Ġ","M"],["g","e"],["u","n"],["Ġ","out"],["Ġm","y"],["us","t"],["Ġg","o"],["ou","ld"],["a","in"],["i","l"],["Ġh","im"],["Ġ","W"],["Ġn","ot"],["!","\""],["Ġs","o"],["Ġon","e"],["a","nd"],["k","s"],["Y","ou"],["Ġ","N"],["Ġthe","y"],["Ġc","an"],["p","l"],["o","re"],["ar","t"],["on","e"],["er","s"],["Ġc","h"],["u","m"],["Ġd","e"],["ac","k"],["Ġ","D"],[",","\""],["es","t"],["Ġg","et"],["p","p"],["Ġf","r"],["a","ke"],["Wh","at"],["Ġb","ut"],["Ġhe","r"],["Ġth","is"],["Ġa","ll"],["k","ing"],["a","b"],["Ġk","n"],["am","e"],["Ġsay","s"],["Ġ","P"],["Ġw","hen"],["it","t"],["ĠH","e"],["re","d"],["o","l"],["Ġw","or"],["i","e"],["r","y"],["in","d"],["ou","r"],["ar","d"],["Ġs","he"],["ow","n"],["Ġl","e"],["q","u"],["Ġl","i"],["Ġ","G"],["Ġwh","o"],["r","ou"],["t","h"],["ver","y"],["Ġc","om"],["Ġ","J"],["at","e"],["u","l"],["Ġh","ad"],["u","ck"],["e","nd"],["all","y"],["ic","e"],["es","s"],["is","t"],["s","s"],["Ġwh","at"],["Ġ","F"],["Ġfr","om"],["Ġb","o"],["Ġthe","re"],["oo","d"],["t","o"],["Ġd","id"],["Ġa","b"],["Ġ","O"],["us","e"],["Ġ","L"],["as","t"],["Ġe","x"],["Ġs","u"],["ic","k"],["Ġof","f"],["e","ar"],["r","a"],["Ġd","ay"],["Ġs","p"],["Ġp","l"],["Ġwe","re"],["Ġas","ked"],["im","e"],["Ġ","v"],["*","*"],["Ġb","y"],["..","."],["e","l"],["Ġc","l"],["Ġ","1"],["--","--"],["Ġ","-"],["Ġd","own"],["Ġj","ust"],["Ġn","o"],["i","ve"],["Ġo","r"],["Ġl","oo"],["u","y"],["ot","her"],["a","g"],["on","g"],["id","e"],["Ġkn","ow"],["Ġd","on"],["Ġthe","m"],["n","t"],["Ġ","ro"],["e","p"],["Ġb","ack"],["at","ion"],["itt","le"],["a","k"],["Ġc","on"],["Ġc","o"],["Ġin","to"],["Ġt","e"],["Ġre","pl"],["Ġa","l"],["Ġ","R"],["in","e"],["'","m"],["0","0"],["u","d"],["i","es"],["Ġw","ill"],["Ġ","E"],["Ġab","out"],["Ġ","if"],["Ġp","ro"],["a","p"],["i","ed"],["o","ck"],["Ġo","ver"],["Ġ","You"],["w","o"],["h","ing"],["f","ter"],["r","is"],["Ġw","ould"],["as","s"],["Ġthe","n"],["_","_"],["e","m"],["in","k"],["Ġs","ome"],["Ġa","g"],["Ġc","all"],["Ġli","ke"],["n","e"],["w","ay"],["Ġt","ime"],["Ġan","y"],["T","h"],["re","e"],["o","nd"],["Ġw","al"],["g","h"],["ir","st"],["t","her"],["'","re"],["Ġl","o"],["if","e"],["a","use"],["i","le"],["Ġw","ant"],["Ġh","as"],["Ġp","e"],["a","re"],["Ġg","ot"],["v","en"],["Ġg","uy"],["ac","h"],["f","f"],["Ġf","e"],["Ġ","qu"],["it","e"],["Ġdo","es"],["H","e"],["o","s"],["o","d"],["Wh","y"],["ĠC","h"],["Ġthe","ir"],["Ġf","irst"],["v","ing"],["Ġl","ittle"],["at","er"],["Ġt","r"],["Ġo","ther"],["b","er"],["ur","n"],["ou","s"],["or","t"],["Ġs","c"],["g","ht"],["Ġb","l"],["ct","or"],["..",".."],["b","le"],["c","ause"],["ou","nd"],["Ġ","'"],["Ġt","wo"],["as","e"],["op","le"],["l","f"],["'","ll"],["a","ge"],["Ġto","o"],["he","re"],["u","ll"],["Ġs","m"],["Ġc","ar"],["Ġo","ld"],["Ġne","w"],["Ġse","e"],["Ġc","ould"],["Ġ","us"],["Ġw","ent"],["rou","nd"],["i","re"],["ĠN","or"],["Ġha","nd"],["Ġh","ow"],["Ġd","r"],["x","t"],["i","p"],["Ġe","very"],["n","g"],["u","re"],["Ġbo","y"],["Ġpe","ople"],["m","er"],["w","e"],["Ġb","r"],["ĠT","h"],["Ġrepl","ied"],["!","!"],["m","an"],["a","w"],["ri","end"],["Ġp","re"],["n","y"],["Ġ","en"],["p","t"],["ic","h"],["Ġt","ake"],["Ġp","r"],["is","h"],["Ġf","l"],["ĠNor","ris"],["Ġ","2"],["Ġt","ell"],["Ġag","ain"],["Ġ","("],["i","ld"],["m","ent"],["ac","e"],["he","d"],["a","h"],["Ġg","r"],["ou","se"],["Ġon","ly"],["ac","her"],["Ġcom","p"],["Ġdo","g"],["Ġp","o"],["Ġy","ear"],["ĠI","t"],["e","ct"],["Ġm","o"],["a","ve"],["at","her"],["p","er"],["an","g"],["Ġa","r"],["Ġp","ut"],["oo","l"],["Ġj","o"],["Ġgo","ing"],["Ġw","om"],["or","n"],["Ġh","ome"],["Ġd","ri"],["'","ve"],["it","y"],["Ġa","fter"],["Ġm","ake"],["f","ore"],["Ġm","ore"],["Ġbe","en"],["Ġ","What"],["a","u"],["i","an"],["Ġg","ood"],["Ġne","xt"],["Ġ","$"],["re","n"],["Ġas","ks"],["in","t"],["v","es"],["W","ell"],["Ġr","ight"],["Ġf","riend"],["Ġth","an"],["Ġw","r"],["ac","t"],["o","h"],["Ġa","m"],["Ġst","art"],["o","se"],["Ġa","c"],["Ġn","ow"],["i","z"],["Ġdo","ctor"],["ig","n"],["Ġ","very"],["ad","e"],["Ġth","ink"],["I","t"],["Ġa","round"],["Ġb","ar"],["----","----"],["f","t"],["Ġc","ou"],["ĠS","t"],["Ġu","n"],["w","n"],["Ġb","et"],["I","f"],["at","h"],["Ġc","ame"],["e","e"],["o","y"],["Ġan","s"],["v","ed"],["Ġw","ife"],["Ġ","U"],["at","ed"],["t","ing"],["Ġc","he"],["N","o"],["u","p"],["p","h"],["Ġw","ay"],["ab","le"],["u","e"],["Ġ","Y"],["Ġse","c"],["Ġa","d"],["Ġl","et"],["Ġ","K"],["ir","l"],["W","hen"],["Ġpl","ay"],["Ġwom","an"],["is","s"],["H","ow"],["a","il"],["nd","er"],["Ġto","ld"],["Ġwor","k"],["u","b"],["ĠW","hen"],["**","**"],["Ġhe","ad"],["oh","n"],["Ġ","ke"],["Ġdo","or"],["se","lf"],["om","et"],["Ġbe","cause"],["Ġbe","fore"],["Ġde","c"],["he","s"],["ak","es"],["Ġm","in"],["p","en"],["Ġd","is"],["Ġl","ong"],["Ġth","ing"],["Ġc","at"],["Ġp","h"],["re","ss"],["Ġt","urn"],["__","__"],["Ġhe","re"],["Ġro","om"],["o","ld"],["Ġte","acher"],["Ġm","other"],["Ġcon","t"],["Ġ","3"],["oo","k"],["ad","y"],["um","p"],["th","ing"],["a","ir"],["Ġb","re"],["ar","y"],["Ġs","l"],["Ġ","im"],["ou","ght"],["ĠS","o"],["Ġgo","es"],["Ġdid","n"],["Ġwh","y"],["a","it"],["t","e"],["Ġf","o"],["one","y"],["ir","d"],["Ġwh","ich"],["e","w"],["ĠS","he"],["Ġu","nder"],["Ġc","ome"],["or","d"],["Ġne","ed"],["Ġn","ame"],["Ġha","pp"],["Ġf","ind"],["en","ce"],["Ġyou","ng"],["o","g"],["an","s"],["Ġl","ight"],["r","ow"],["Ġwh","ile"],["ion","s"],["Ġne","ver"],["Ġg","irl"],["ĠThe","y"],["ĠCh","uck"],["E","R"],["Ġmin","ut"],["Ġn","ight"],["Ġr","un"],["Ġman","y"],["Ġg","re"],["Ġsh","ould"],["ou","gh"],["Ġh","ouse"],["Ġch","ild"],["C","h"],["ig","h"],["Ġat","t"],["Wh","o"],["Ġm","u"],["Ġp","er"],["ri","ed"],["ĠJ","ohn"],["l","es"],["Ġw","here"],["Ġf","in"],["Ġst","op"],["g","g"],["Ġf","ather"],["ĠI","f"],["Ġe","at"],["Ġre","ally"],["Ġre","p"],["Ġl","ast"],["Ġl","aw"],["an","ce"],["Ġg","ive"],["Ġa","pp"],["ar","s"],["rou","gh"],["Ġs","on"],["Ġb","ot"],["omet","hing"],["Ġ","V"],["on","t"],["Ġan","other"],["Ġsec","ond"],["d","ay"],["Ġ","our"],["ers","on"],["Ġs","ame"],["Ġre","s"],["w","er"],["ent","s"],["Ġwe","e"],["Ġk","id"],["Th","at"],["S","o"],["Ġt","al"],["way","s"],["at","ch"],["e","ver"],["an","k"],["g","et"],["t","y"],["Ġe","ven"],["Ġre","m"],["A","nd"],["Ġt","ry"],["an","ge"],["Ġo","pen"],["Ġb","ig"],["or","y"],["Ġf","ar"],["Ġcall","ed"],["D","o"],["I","n"],["Ġst","ill"],["f","e"],["le","ase"],["ch","ool"],["a","king"],["Ġth","ree"],["Ġth","rough"],["Ġe","le"],["Ġwor","d"],["c","i"],["Ġsp","e"],["Ġloo","k"],["s","ide"],["d","y"],["m","y"],["'","d"],["Ġo","wn"],["Ġl","ater"],["Ġm","ar"],["ro","ss"],["Ġyear","s"],["n","ing"],["Ġrepl","ies"],["Ġle","ft"],["O","ne"],["Th","is"],["e","red"],["Ġm","oney"],["Ġs","omething"],["Ġm","ade"],["o","b"],["Ġa","way"],["Ġw","ait"],["Ġp","ar"],["Ġsc","re"],["h","h"],["Ġqu","est"],["I","N"],["Ġp","ol"],["Ġst","ud"],["p","le"],["Ġmu","ch"],["ĠH","ow"],["Ġm","om"],["Ġst","and"],["c","l"],["n","ock"],["Ġp","erson"],["Ġhe","l"],["Ġth","ought"],["Ġbe","l"],["Ġas","k"],["or","m"],["Ġp","art"],["Ġtoo","k"],["a","v"],["Ġf","ound"],["Ġl","ife"],["Ġs","w"],["The","re"],["Ġe","y"],["Ġe","ach"],["O","h"],["Ġm","on"],["Ġsa","w"],["i","ly"],["Ġb","us"],["ind","ow"],["A","n"],["Ġ","5"],["Ġe","nd"],["Ġre","ad"],["Ġ","4"],["is","e"],["Ġp","ass"],["\"","."],["Ġs","chool"],["ĠW","e"],["en","s"],["Ġdec","id"],["Ġminut","es"],["M","y"],["ĠI","n"],["Ġke","ep"],["Ġal","ways"],["B","e"],["Ġ","use"],["r","u"],["Ġw","ater"],["Ġsh","ow"],["Ġlaw","y"],["Ġp","ull"]]}}